E7
E9
DD
CA
30
01
E8
2A
D7
DD
24
FB
20
15
30
DE
0B
28
F2
10
20
EF
DB
25
FE
F9
16
FD
D5
F4
C7
22
C6
1C
D2
E7
44
29
25
38
F7
DD
13
CD
CA
29
29
C9
C2
35
E8
E5
1F
2C
D3
DE
32
0E
EE
3C
00
E0
3A
CB
C9
27
DE
E9
19
E5
C8
FC
B7
0D
E6
FF
19
0D
1A
CD
14
3E
1A
F2
57
D9
D8
DC
D1
D7
DC
26
CD
F1
34
FA
C1
E7
25
D9
32
29
E9
1A
E6
F1
1A
22
EB
0B
35
2E
B8
1E
1D
FD
EA
4F
05
2E
44
D8
CC
37
FA
EE
3F
B1

