006D80E7E2000001BF000F40DBCF000C000203E00003E001
03B000001000FF900200314103C000040F80FBD186E0C000
5400F3000000F40000F802800000C0183000000040034F00
140080FC00C008403A03BF80F40E35036F06000007F4303D
27AFBBF82DEBEC50002000FB080FF7000D0013E105000E80
27A000FBC3C00351400000C0240034080FC00001C0006000
6802C0080EFB006F80F4003620007D03FE001310030FE1F6
0000000C00C0240F0000000001A00003FE80000000200000
28B00503B03F00503FE7BFF6180F0004003DE42100D80000
000004DC0000000000FC90000010001C40040C0080000000
03EF45040000FFE000000E03FC000000003F00003C000F80
700036F80006F49000FFC002000F40FB80000001F5100000
680E00000DBB02E00000E207000000007280000E00480000
000F80303F0003B00000500C03B10B0C2E7CC81000006040
03F0000C0EBF000000000FBF042002EC0000E40003D40000
7C0040000000000034F80000000BC0EBC000F80F4003F000
0031C1E800C000C0BA0C0E00001000F000380000C01C0000
03E280E92EC0000FC0D0003EE0000000010B138005EC0E40
037048000001C40000080FC8EC003B07B20703404500003B
00003F00C1FE00A000037000E43000E80000038F79EFB082
00003410003BF80C77F40F8200000300000500001B13B003
10000FE00E40EC6F40000E40003002080007003E80000000
68100000FF3CE4014000F00003A34002D00001430003A00A
74800018203D243200FC003E300004F4203BE44FFFFC0008
03EEC0FC000A00403FFC0EC0E80000000000FC1000FC4F00
0002C000503900003A000001001008009FC4037000008000
740E0000008000018503F0000000010BE00000D03E03C004
0380C0280080000EB90000000000C0D7D000F80000E00DC2
000034000000D000003C0000180DC0B40000000240000580
00003CEB400000003F006E40000000081000F00001003040
000F80E8003ED804CD039539CB40003BA3FB0002C0E2F1D8
03FEC008000004000A00100000003EF7F001240000FC0000

