35
0D
00
00
0F
00
00
00
00
3C
05
3A
38
00
00
39
3A
3B
00
01
02
38
00
00
00
3F
04
02
09
00
00
04
00
00
03
06
00
05
00
00
00
04
08
00
07
00
00
3B
00
00
07
00
3A
07
3F
00
00
3E
3E
06
00
00
00
00
09
3D
00
00
00
00
06
00
08
00
03
00
0E
00
0C
00
0A
00
36
00
3C
00
07
00
3A
06
3C
00
3B
3E
01
04
00
00
00
00
3F
00
04
00
01
00
00
00
00
00
3B
3A
31
38
07
36
00
00
04
00
00
00
08
04
08
00
07
3C
00
3B
3E
07
07
00
3C
01
3E
00
00
08
03
3A
06
00
00
0E
00
00
00
35
3B
38
00
39
00
00
00
3C
00
3F
3E
00
35
00
39
35
3F
37
36
00
35
00
04
00
00
0F
3D
0A
00
3A
00
00
03
04
3E
37
01
39
36
00
00
02
00
03
00
3B
00
02
00
00
02
35
00
00
00
00
3C
0B
09
00
00
00
00
08
00
0E
08
00
00
03
00
30
04
00
00
00
0D
06
0A
3E
0A
00
00
00
05
00
00
00
05
00
3B
00
36
05
00
00
3E
00
3D
07
00
3A
00
01
02
00
00
00
39
3C
00
3A
01
00
03
3F
04
39
09
06
0B
3F
00
00
00
04
00
3B
00
00
09
07
02
06
00
05
35
05
00
00
37
00
06
39
34
00
38
00
00
07
00
00
03
04
05
00
00
03
06
00
3B
00
04
05
08
00
00
05
31
00
02
00
02
00
00
00
00
00
00
3C
33
00
3E
3B
3A
00
00
00
09
07
39
00
00
00
3B
35
37
04
00
00
00
00
00
00
00
3D
00
00
3F
05
00
0D
00
00
00
35
31
38
00
00
3D
06
06
00
00
03
39
00
09
08
00
07
00
3E
00
04
00
00
39
04
00
00
00
08
00
00
08
3A
00
04
00
3A
3B
00
00
00
00
01
03
07
00
00
00
01
37
03
02
02
00
00
00
05
01
37
3B
06
3A
00
07
09
00
00
00
0B
32
00
00
00
35
00
0B
39
05
3D
3A
09
04
39
06
06
3A
37
00
00
3B
39
00
39
00
00
38
00
3D
3D
00
03
39
3B
00
00
00
02
01
03
04
00
3E
00
3F
08
3D
09
00
00
00
3E
0E
00
00
00
0B
00
3F
00
3D
00
02
0D
00
00
00
00
0A
08
00
00
07
00
00
00
00
00
00
37
00
05
3B
3E
0A
00
09
08
00
00
3F
00
3E
07
07
00
08
00
00
00
00
37
03
3D
00
01
07
00
3B
00
00
00
00
3E
00
00
0B
00
3A
38
00
3D
00
0D
08
00
00
00
3A
00
00
06
00
04
05
00
39
00
01
00
06
00
00
00
00
3B
00
00
00
0C
00
06
04
03
03
00
00
3B
3C
3D
00
3B
05
38
03
00
00
00
3B
36
00
00
00
39
09
00
37
04
00
00
01
00
00
00
00
00
00
3D
00
3D
00
00
03
37
00
01
3A
3A
00
35
00
39
38
05
00
39
00
00
05
00
00
3C
00
38
38
08
00
07
00
00
00
00
3A
3E
00
04
00
00
00
3D
00
00
00
00
04
00
0B
00
06
39
04
00
00
3C
00
00
06
08
00
00
00
00
00
00
04
00
3F
00
04
00
05
00
04
3B
06
00
3E
06
00
00
00
00
00
3A
00
00
00
00
39
00
00
0B
00
38
00
3E
00
00
37
00
00
00
00
00
3A
3A
38
3C
00
00
03
00
00
00
02
00
00
3C
00
3D
00
00
3F
00
00
00
00
00
00
00
00
00
00
00
00
00
37
00
02
00
00
00
00
3D
00
09
0D
3C
09
00
38
03
00
3E
03
00
00
00
00
07
04
00
03
00
00
3D
04
00
05
00
00
00
35
00
3D
00
00
00
00
00
00
00
00
00
00
3C
00
00
00
00
02
3D
07
00
08
00
00
00
00
04
3B
00
03
00
3C
00
00
00
38
03
00
05
00
04
3F
3F
00
00
02
3E
00
00
00
3B
3C
00
00
3C
00
04
00
07
00
09
07
3E
07
3F
0C
00
00
08
00
0A
34
00
00
07
07
00
3D
38
00
00
06
00
00
00
00
00
09
3A
3D
00
3C
00
00
00
00
3D
08
00
00
09
00
3C
02
3C
04
04
03
3A
07
00
00
00
0B
00
00
08
3D
00
09
01
00
3B
00
03
00
3D
06
3A
06
38
00
38
09
07
09
3A
00
00
00
01
00
00
00
00
3C
00
06
00
00
00
3E
00
00
09
08
0B
00
00
3D
00
00
00
00
00
00
05
05
02
00
00
03
03
00
00
00
0A
07
00
00
00
3B
00
06
03
00
05
00
36
38
02
37
37
07
39
00
09
00
07
00
3A
00
00
00
00
00
00
00
00
06
06
06
00
06
09
00
00
38
3B
00
08
3F
3E
05
00
38
00
3A
00
00
04
00
00
36
37
06
37
03
03
00
00
00
00
00
00
0A
3B
00
07
04
00
06
00
00
00
00
3D
00
06
3E
00
07
00
06
00
00
05
00
00
00
04
00
00
00
00
07
00
07
0A
00
3F
00
06
05
00
00
00
00
00
00
00
05
37
00
08
00
00
08
03
00
00
03
3F
00
00
01
07
39
00
00
00
00
03
00
05
38
00
04
3A
00
00
03
00
00
3B
00
00
04
00
00
38
39
3E
00
3B
00
3B
04
07
06
07
05
00
00
05
05
01
00
00
38
39
3D
02
34
3C
00
00
3B
3D
00
07
3E
00
00
00
00
00
03
3B
00
3B
00
00
00
00
00
00
00
04
06
04
01
00
06
09
00
00
00
00
00
00
07
05
3E
3E
3E
08
00
00
00
38
00
3B
00
00
00
07
00
00
3C
00
3F
00
32
3A
00
3F
00
02
03
00
00
00
00
00
00
00
00
16
00
37
00
3A
00
00
09
00
00
3A
3E
00
00
00
00
36
3A
00
00
33
33
00
00
35
05
32
00
04
00
38
00
00
35
33
00
33
00
00
39
3B
03
36
00
00
00
00
00
00
00
00
3E
3C
00
06
00
3D
00
00
00
00
00
00
00
00
3C
3B
03
37
00
3B
3B
05
38
00
00
00
3F
3B
01
31
02
02
04
00
03
3B
3A
00
00
04
00
00
00
00
00
04
00
00
02
00
3D
02
00
06
00
00
39
00
05
00
00
00
3C
00
3D
00
0B
00
0A
3E
37
00
06
00
38
00
36
3D
3B
01
00
00
06
00
00
08
0D
3A
32
00
3E
0A
00
09
06
00
00
00
00
00
36
3A
00
04
06
00
00
00
00
04
04
00
3C
05
00
3E
00
00
3C
00
3E
3E
10
00
00
00
00
17
09
0E
00
00
00
05
05
01
38
00
00
00
3A
04
00
00
00
00
00
3A
00
00
0C
05
00
00
06
00
00
3B
3D
00
3D
06
08
00
00
00
39
3B
3A
00
0B
00
00
3A
04
04
09
05
00
03
05
3B
3C
07
04
3C
08
01
00
3D
00
00
0A
00
00
08
02
09
00
05
3B
0D
00
3D
00
00
39
00
07
00
00
00
3E
05
3F
3D
00
00
00
00
00
38
00
3C
02
03
39
07
38
00
00
3B
00
08
05
38
37
0A
00
0B
00
00
00
00
0C
00
39
3C
00
3E
00
00
00
07
3B
02
3C
04
00
00
04
05
05
00
00
00
06
08
04
00
00
3E
00
07
06
00
00
06
00
0A
0B
3E
00
00
02
0B
3D
39
09
00
00
00
00
3A
04
00
01
02
38
00
07
30
00
00
00
00
00
38
00
00
00
0D
03
39
00
00
00
3B
3A
3A
3D
05
38
00
08
05
00
00
3B
3A
00
00
03
00
3F
00
07
01
00
00
00
02
05
00
00
09
3B
3F
00
3E
00
00
00
33
00
04
00
08
0A
00
37
3D
00
00
00
00
3B
00
3C
00
3E
07
00
00
05
07
00
00
05
00
00
00
00
36
05
08
00
39
07
09
08
06
00
00
00
00
06
00
0A
00
00
00
37
06
0A
00
3A
00
01
07
00
00
37
00
32
00
00
00
33
00
00
00
03
00
01
00
00
00
00
00
02
3C
02
00
31
00
00
00
00
38
03
05
39
0B
00
06
09
0C
0B
00
00
00
00
06
00
06
09
00
09
0F
00
00
06
3F
04
06
00
0A
00
05
00
05
00
00
0A
0D
0B
07
00
02
09
08
00
00
00
00
00
00
02
00
00
00
00
07
07
00
00
3C
00
3D
00
3E
00
3A
00
00
00
38
00
02
06
00
00
00
00
00
00
00
00
00
00
00
00
34
00
00
00
00
00
00
00
00
05
3E
02
00
3E
00
3F
04
00
00
00
3D
38
00
00
00
00
00
00
1A
04
00
02
00
00
00
00
00
00
00
3E
3A
00
00
00
00
00
00
00
05
00
00
0B
00
00
00
00
00
00
3E
00
00
00
00
00
07
00
00
00
00
00
00
00
00
00
00
00
00
3B
00
39
00
00
02
00
09
00
00
00
00
3B
00
00
10
0A
00
07
00
00
00
00
00
38
00
00
3B
3D
00
06
00
04
00
00
00
00
00
01
04
00
3E
00
00
02
00
03
04
00
00
00
00
08
00
00
0B
00
00
00
00
3F
00
00
00
07
00
3F
00
00
00
00
3B
00
00
3F
08
00
36
09
00
00
00
00
00
00
00
00
00
00
04
08
00
00
00
01
06
04
3A
00
3F
05
00
3D
00
01
00
04
02
07
00
00
05
03
00
00
00
00
00
3C
00
09
00
3E
3E
00
00
38
00
3B
03
00
00
34
03
00
00
3D
3A
00
36
0D
03
00
00
00
00
00
00
0A
3D
08
39
00
00
3D
00
07
01
3E
00
3B
00
3D
00
05
00
3E
0B
05
01
1C
3E
3F
08
00
00
00
3C
00
00
06
00
00
00
00
00
00
00
00
38
00
35
36
00
00
00
00
03
00
3B
00
3D
00
00
03
03
00
00
00
00
07
00
36
00
00
00
31
01
3E
00
00
00
00
00
00
12
00
00
00
09
00
3B
00
0D
00
07
0C
00
3F
00
00
00
00
00
00
0A
00
00
06
00
00
00
00
00
39
3B
00
3F
00
05
00
09
01
3F
00
06
35
00
04
00
07
00
02
36
00
00
00
08
00
00
00
00
13
3F
14
00
36
00
00
00
00
00
38
00
3B
00
00
00
00
04
06
00
3C
06
07
00
00
00
00
3A
00
05
3B
3F
08
00
3F
06
3E
00
00
3E
3D
00
00
3E
07
09
00
08
00
03
00
00
00
3D
0A
00
3D
39
00
00
3F
00
00
00
3A
00
07
39
00
00
00
08
00
0E
00
00
00
3E
00
00
10
00
0C
00
00
3D
03
06
00
00
0A
0D
01
00
00
06
03
05
09
00
00
00
00
00
0D
00
00
02
3E
03
00
02
00
00
0D
06
00
00
00
05
05
39
00
06
00
00
37
39
07
00
3E
00
3B
00
3D
00
00
3C
09
3C
00
00
00
03
01
00
38
00
38
04
00
00
00
00
00
00
00
05
37
00
00
00
00
00
36
00
00
01
00
36
3F
00
01
3B
0E
07
00
0B
00
00
00
00
00
04
00
00
00
00
3A
00
04
00
3F
04
00
00
00
3C
05
00
00
3F
00
00
00
00
00
00
00
03
08
08
06
3F
3C
00
00
00
00
36
39
3C
3E
35
06
02
36
00
3D
00
0A
00
00
00
0A
00
00
00
00
3F
00
06
00
00
05
3F
06
00
01
00
00
0C
3A
00
06
00
00
09
07
03
00
08
06
00
00
00
00
09
00
37
00
00
00
00
00
3B
00
00
3C
00
3C
06
38
30
00
07
32
00
00
35
00
00
0A
00
0F
00
00
00
00
00
04
00
37
00
00
3B
37
00
39
39
00
3B
3F
00
3B
3F
03
00
0B
00
36
3E
00
3E
06
01
3D
00
00
00
3A
00
34
37
39
37
00
00
06
00
00
3C
00
09
3D
00
39
00
34
00
00
05
00
03
02
03
00
00
00
00
00
3C
38
00
3A
34
38
00
00
04
3D
00
00
0A
0B
00
0C
00
0A
09
00
00
00
00
0B
00
07
3D
00
00
00
00
0A
07
00
00
05
00
00
04
3A
05
00
3C
00
04
02
00
3F
04
00
00
3F
00
06
00
3A
00
37
00
3D
3E
38
00
04
00
00
00
00
05
00
00
04
00
0A
00
00
00
00
00
00
00
35
00
3E
00
3A
00
3C
35
04
3C
00
00
01
00
00
05
00
00
3A
00
00
00
08
3C
00
3D
00
3D
01
02
00
3C
00
00
00
00
00
00
3B
00
3A
05
00
35
06
3C
06
3F
05
00
04
04
09
3F
03
35
08
00
0E
00
16
00
00
3A
00
00
3C
37
02
02
07
03
04
01
02
00
03
38
3B
3F
05
06
00
01
00
00
00
3F
05
04
07
00
00
06
00
05
00
00
02
00
04
03
06
00
00
08
00
00
3C
07
00
00
00
00
0C
38
00
00
00
00
00
00
33
35
04
09
00
00
3F
00
01
3D
01
3C
00
00
0E
00
00
06
00
07
36
00
00
04
36
3D
08
00
39
3A
00
00
05
00
3C
08
37
07
00
00
3B
00
00
07
34
03
00
00
36
00
00
37
00
00
00
00
01
00
00
3B
00
00
39
3E
3D
00
3C
00
00
00
00
00
05
00
00
3D
00
04
3C
3B
00
00
00
04
3F
3A
00
00
00
3D
09
06
00
00
00
00
38
00
37
09
06
3C
00
00
00
00
07
00
00
00
3A
00
3A
00
39
00
05
3E
00
05
00
00
3C
04
3E
00
00
07
00
03
00
06
00
3B
00
0D
05
39
09
02
00
00
00
02
00
02
04
05
03
00
00
00
3C
36
31
00
3B
00
08
01
07
00
00
00
00
00
07
07
3D
00
02
00
00
38
00
00
01
00
00
00
03
3B
00
05
00
00
00
00
00
02
0B
01
03
02
00
00
00
00
00
00
09
04
00
03
00
38
00
00
00
08
00
38
00
38
00
00
09
3B
00
00
00
00
00
04
00
00
3A
3E
3C
00
36
00
36
00
00
0A
3E
0A
08
00
39
04
00
00
00
00
00
03
00
00
0B
00
36
00
11
00
00
09
00
3B
00
00
06
38
3C
00
00
09
00
00
00
03
03
06
01
00
00
04
00
02
00
3C
02
00
01
00
00
38
03
3B
00
00
00
3B
08
00
00
00
04
00
3E
00
00
06
00
0C
06
00
00
00
00
0C
0F
00
0A
00
0A
04
02
00
07
0B
00
3B
00
00
39
02
39
00
3C
3A
00
00
00
00
08
00
39
3B
3B
02
00
00
00
00
3E
00
00
00
00
09
06
08
00
00
00
3F
3F
3D
00
00
00
39
00
00
2E
31
00
04
00
00
00
2F
00
33
00
00
00
00
00
00
00
00
00
00
38
3F
00
0B
00
00
3D
00
00
3C
00
00
3F
00
00
00
02
00
00
04
00
00
10
00
3C
00
00
00
00
00
3B
00
03
00
38
00
34
06
00
00
08
3E
00
00
38
39
37
00
00
39
00
3A
00
00
00
3E
00
00
05
3E
00
00
00
00
31
3C
00
00
07
00
00
00
00
3D
07
00
39
00
0C
00
0B
38
01
39
00
00
00
00
3B
00
00
04
00
3A
3C
38
3E
00
00
3B
0A
06
00
07
3A
01
06
00
06
00
3E
05
09
06
00
03
07
00
00
3B
00
38
00
00
00
00
07
00
00
00
00
00
09
32
06
00
00
3D
00
00
00
3E
39
00
00
00
3E
00
08
0B
00
01
00
04
0A
00
06
3F
00
00
00
00
00
00
0B
00
0B
0A
00
3E
00
06
03
05
00
05
00
00
38
3D
00
00
00
37
00
00
00
3D
00
00
00
00
35
00
3D
00
00
06
39
00
00
3D
35
00
09
00
00
00
00
00
05
00
00
3A
00
3F
00
07
02
05
00
38
3C
3C
00
00
00
3B
00
00
3C
3F
3F
3F
3B
00
00
00
02
00
3E
00
06
01
00
3F
00
00
05
00
00
02
00
37
3A
37
0B
00
06
00
00
00
02
09
05
00
00
08
05
04
08
00
00
09
00
07
39
00
00
00
03
37
00
04
05
00
00
00
0B
3D
00
00
0A
08
00
00
07
00
07
00
00
00
00
04
00
00
00
07
3D
00
00
00
39
39
00
01
38
01
3A
00
00
3D
03
00
3B
00
01
00
00
00
00
3A
3A
00
3B
00
04
00
00
02
00
00
03
00
00
00
00
39

