06
07
00
00
36
0D
00
00
07
00
00
00
03
37
3A
00
33
2C
00
00
0A
01
00
00
00
00
3F
3A
00
00
0D
37
00
2F
37
00
00
3C
00
3A
00
0B
00
00
04
00
00
0D
12
0E
00
01
00
04
37
03
3C
07
05
00
00
00
09
38
00
32
00
02
00
00
04
32
00
00
00
20
32
0C
00
00
25
09
37
30
30
00
09
00
38
00
00
00
00
12
37
00
0B
00
04
00
00
2A
00
22
26
00
24
3F
07
00
00
11
00
00
00
3E
00
29
07
36
00
00
0E
00
00
09
00
00
00
00
00
00
04
00
34
01
00
3F
33
00
00
04
00
00
08
05
00
00
00
00
00
05
00
00
00
33
00
00
3B
00
07
00
00
00
3E
04
00
00
38
3A
00
00
30
04
00
00
2F
00
00
00
3C
00
3E
00
00
00
00
00
00
01
00
00
00
3F
30
00
00
00
00
00
3A
3E
00
00
00
00
00
00
3E
36
00
00
00
00
00
00
38
00
00
00
00
00
19
00
1F
06
00
00
00
00
00
2E
00
00
00
10
34
00
00
00
00
05
00
10
00
37
00
00
39
37
00
00
00
39
00
00
00
00
00
3E
06
00
0E
00
00
00
00
0A
00
00
00
01
00
3F
00
00
00
00
05
35
3A
03
30
00
3B
00
39
08
0D
35
00
00
0A
36
00
08
3B
00
00
09
3B
00
00
00
0F
00
00
00
00
06
0A
00
00
00
00
00
06
37
00
00
00
00
00
00
09
00
0F
00
00
09
0C
00
0D
00
00
37
00
00
31
00
00
0F
3E
35
00
3B
34
04
00
37
00
3D
09
09
06
00
00
00
00
3A
00
00
00
3A
00
00
20
23
30
00
34
00
00
0D
00
00
30
00
13
36
11
0E
00
00
09
3E
00
39
00
2C
00
00
06
00
37
0E
39
3A
36
00
00
00
00
0D
0B
00
1B
39
12
00
30
00
00
31
04
14
00
04
00
00
00
00
03
0B
00
00
00
3A
00
00
38
00
0D
36
37
00
04
00
00
00
00
00
00
36
00
00
00
3E
2A
00
00
05
3A
00
00
00
00
3B
05
00
00
00
00
00
00
00
00
04
06
3A
00
0A
06
00
35
37
08
00
38
0D
00
07
38
00
00
3F
36
08
00
07
06
07
38
00
00
09
3C
05
00
06
06
38
04
00
00
1F
34
1E
09
00
32
2E
00
16
00
00
00
00
16
12
1C
00
35
00
09
00
00
36
3C
34
00
00
2B
00
13
00
0D
3B
00
32
00
00
04
00
00
00
00
0B
3A
0E
38
35
33
00
09
00
00
36
06
00
00
00
2F
00
3A
08
3B
39
39
0C
39
3C
07
00
07
38
00
00
00
00
35
00
00
00
00
00
32
00
08
0C
00
0A
38
08
00
3A
3C
0C
36
00
37
00
00
00
00
39
38
00
13
00
00
00
3D
00
00
0C
3A
0E
00
0C
10
35
2C
00
00
00
04
00
0D
00
00
3C
00
00
00
04
00
00
00
00
00
3A
01
3B
00
00
3A
00
00
00
00
14
29
1F
00
00
3E
19
36
30
00
00
00
10
0F
00
00
3E
39
3C
00
00
00
15
00
2F
00
00
31
00
00
29
36
1A
34
00
00
00
00
00
00
00
01
00
00
04
0E
08
00
00
00
31
38
0A
09
00
00
09
00
04
00
00
39
00
34
00
00
36
33
00
3D
00
11
14
00
00
00
00
00
07
00
00
00
37
00
33
00
08
00
00
00
39
00
3E
00
3C
00
3C
00
00
00
12
0A
0B
00
3A
00
35
00
00
39
38
00
00
00
00
00
00
00
00
00
00
00
00
00
00
00
08
00
38
00
00
00
00
00
09
0B
00
00
3D
07
00
00
00
00
0C
00
00
0F
00
00
00
00
00
00
33
00
00
00
00
0B
3A
00
0D
0C
00
0A
00
3B
3A
09
05
00
00
35
00
33
00
0C
3C
00
07
09
00
00
00
3A
0C
00
33
04
0D
00
09
00
05
00
00
00
00
00
00
0A
00
0C
00
00
00
00
0D
07
39
00
07
11
00
00
14
12
00
08
08
15
00
00
00
38
37
00
35
05
00
00
3C
35
3F
00
3B
3C
00
00
10
12
00
0D
00
00
09
00
01
00
00
14
38
00
3B
00
36
39
00
00
01
34
2E
00
33
02
00
00
06
00
00
34
3E
06
00
00
00
06
00
00
00
00
07
0D
00
00
38
00
16
00
00
00
01
00
33
0D
00
06
0C
00
00
09
15
00
11
00
3A
00
13
11
08
0E
37
00
0E
00
0A
31
00
00
00
39
34
00
33
00
38
2D
2D
33
00
00
00
0C
00
00
08
35
36
0E
0C
0E
00
3D
00
00
00
00
00
02
05
08
00
3A
08
08
3B
35
00
0D
00
00
00
00
3A
0F
00
00
35
00
00
36
06
33
37
00
00
00
09
00
09
00
36
08
00
31
00
00
09
35
30
32
00
0E
00
00
36
3B
3C
00
00
0D
00
35
00
2C
00
00
00
00
00
0D
08
00
03
03
00
00
00
00
00
3A
00
3C
06
00
39
06
3B
1C
2A
2C
05
24
00
21
1F
00
00
00
00
30
00
11
30
2F
2D
12
00
00
00
0B
00
00
00
2F
08
00
0C
10
00
30
35
18
37
00
09
08
3A
35
32
00
06
31
16
00
00
37
00
00
37
00
09
00
07
00
00
00
00
00
33
05
34
00
00
00
3A
3D
00
0A
00
13
3A
00
00
0D
00
13
00
00
00
00
3B
00
00
39
00
2D
00
00
00
08
00
00
00
00
00
00
00
00
00
00
14
00
00
00
00
0A
0D
06
34
00
07
00
00
30
00
00
38
00
00
13
00
38
00
00
00
06
00
34
3B
08
38
07
00
11
3B
07
0D
07
00
00
3C
35
33
00
00
18
25
00
2A
03
00
00
00
0B
00
19
00
0D
00
34
00
35
0B
09
3A
00
05
35
00
0E
08
00
39
00
1B
00
00
00
00
00
38
00
3D
06
09
39
00
29
00
34
00
00
31
00
00
00
35
05
00
34
00
00
00
00
08
3C
00
0E
0D
00
00
0F
08
3B
00
00
3A
34
0C
00
00
33
00
00
0F
3F
02
39
0C
00
0E
0A
36
3A
0D
34
39
0C
00
05
0A
39
00
00
00
0E
00
00
00
0C
00
00
00
39
00
00
00
00
0E
37
00
3E
00
00
00
0D
00
3C
09
00
09
00
00
39
00
02
3C
07
00
00
04
06
05
00
00
00
37
00
00
20
00
20
00
20
38
17
00
17
00
00
00
12
06
00
00
2E
00
30
00
12
06
00
00
06
0D
31
00
06
00
33
28
00
0C
00
0A
36
00
0A
0A
00
0B
0F
00
07
36
07
07
32
35
07
00
00
04
00
00
04
00
09
06
00
38
06
3D
00
05
07
00
0A
07
38
0E
3A
00
0B
39
00
00
3B
38
00
1A
11
0E
00
09
00
00
14
02
00
15
00
00
10
00
0E
06
00
39
00
0D
39
33
00
00
07
00
00
00
00
0C
07
33
11
00
38
00
31
00
35
37
00
0C
06
00
0F
39
00
0D
0C
08
00
00
00
08
00
39
06
00
00
20
00
00
20
00
00
00
20
0B
18
08
00
00
00
31
00
0D
00
00
00
03
04
00
00
05
00
00
13
00
12
3A
00
35
00
38
0A
0A
35
0D
36
33
3D
00
33
38
14
00
00
00
08
30
00
0D
00
08
00
3E
00
08
31
00
3A
00
0F
00
00
00
00
07
3D
38
00
34
05
00
00
00
00
29
01
00
00
32
0B
0A
00
00
00
09
00
0E
0B
00
00
0F
00
10
00
3B
34
00
00
0C
33
36
00
36
03
00
00
00
07
00
00
00
00
35
00
00
00
1F
15
00
00
0D
36
03
03
0B
3D
37
3A
00
00
03
00
00
00
02
00
39
00
04
00
25
29
00
1C
2C
00
00
36
00
00
39
0C
09
00
00
30
2F
00
00
12
31
00
00
00
00
00
00
00
28
32
00
0A
07
00
00
0C
00
12
00
00
1C
00
00
3F
00
34
10
0F
00
00
00
00
29
00
00
0C
3F
34
00
00
00
05
39
38
35
35
2F
02
00
33
00
34
00
10
00
09
0E
00
08
09
0A
39
03
0D
00
2C
08
00
04
03
35
04
05
05
00
38
00
3A
00
3D
00
00
00
00
00
00
00
00
3C
00
0C
00
00
00
16
09
00
0A
2B
32
11
00
31
00
32
00
07
3A
00
04
00
09
00
00
00
05
00
00
00
00
02
06
00
3D
00
10
00
0D
3C
00
00
00
00
00
13
00
10
00
07
00
00
00
37
00
35
34
08
00
35
00
0B
00
00
00
10
00
1B
00
00
2B
00
00
00
3F
00
2F
00
00
0B
0D
10
0E
3B
00
36
00
08
04
3C
00
06
00
00
05
3E
00
3F
09
00
00
0C
00
00
00
02
00
00
0C
3B
00
00
09
32
00
09
3B
0F
00
00
0B
00
00
07
00
00
00
3A
07
00
37
00
08
00
00
31
00
0C
36
35
00
07
37
09
34
38
3E
0D
00
0B
00
05
00
00
3A
00
2E
00
33
37
09
3E
0A
00
3B
36
0A
00
00
3E
00
00
06
39
38
00
00
06
04
14
14
00
00
2A
00
00
08
00
00
00
3E
1F
00
00
00
37
3B
37
00
1A
00
08
3B
00
00
00
00
00
38
11
3A
14
15
00
00
00
00
00
3A
00
05
06
00
00
34
34
00
08
00
10
0B
00
02
00
00
12
02
00
00
16
00
08
3D
00
07
00
05
00
00
39
00
00
00
00
37
00
00
00
3C
00
38
00
09
00
38
35
35
2E
00
03
00
39
34
35
00
37
00
00
00
00
00
00
00
00
35
37
00
0A
08
36
33
00
00
00
00
3C
00
00
00
00
00
00
01
00
00
39
0C
00
00
00
00
38
00
00
00
08
00
38
3C
38
00
38
20
00
0F
00
00
00
18
00
1E
32
00
00
00
00
0E
2C
34
2E
00
36
00
35
00
2E
0D
0A
07
00
2D
32
13
0F
00
00
00
35
00
00
00
00
00
00
3B
38
01
00
31
00
3A
0E
00
00
00
0C
00
00
32
37
24
31
33
00
00
00
05
00
00
3A
0E
00
35
0D
03
0E
3E
35
39
08
00
36
04
08
00
34
00
00
33
0B
00
36
00
07
03
3D
00
08
08
00
00
3C
08
00
00
39
3F
00
00
00
00
07
01
0E
00
37
00
07
00
07
00
00
08
35
00
00
00
00
00
00
00
00
00
3D
00
0B
00
3E
00
05
05
00
00
00
00
00
00
01
03
1D
00
00
00
12
00
03
00
36
00
38
07
36
00
09
37
00
00
34
38
00
08
00
07
00
07
00
09
39
30
01
30
00
00
37
00
00
09
3D
00
00
00
00
3F
00
00
3E
07
00
00
3F
00
07
00
00
00
00
00
00
00
00
0A
3F
3D
00
00
00
00
00

