1C
06
03
19
00
05
04
00
07
00
00
1D
00
05
1C
0B
0B
1C
00
1B
00
00
00
0A
08
00
02
00
0C
00
07
00
00
1A
18
00
00
00
00
00
00
00
00
00
00
00
00
00
00
00
00
00
00
00
00
18
1A
00
03
00
00
00
09
00
04
09
00
07
19
02
0B
00
00
06
1D
00
00
06
00
03
1F
00
01
00
1C
00
07
00
00
00
00
00
1D
09
00
05
19
1C
00
19
16
00
00
07
07
00
06
07
1D
00
00
1F
1D
00
04
1C
00
04
00
1A
0A
1A
0A
1E
1B
00
1B
1B
00
07
00
00
1D
09
03
00
00
00
18
07
1A
18
19
1E
07
00
00
00
00
18
00
04
1A
1A
1E
1C
00
07
19
00
1B
1B
0B
1A
00
00
04
00
1D
08
00
00
07
14
1D
00
03
0A
00
06
14
07
18
19
00
06
13
00
00
00
1A
04
04
00
00
0B
1C
05
00
00
00
00
00
00
00
00
00
00
00
00
00
00
00
00
00
00
02
00
00
00
00
00
00
00
00
00
01
00
1E
00
03
1F
00
1C
01
00
00
00
00
03
04
1F
00
00
00
00
1D
02
1F
00
00
01
1B
00
04
1B
00
00
00
00
19
06
00
04
00
00
04
05
15
17
05
00
00
00
02
06
00
00
00
1C
05
00
00
00
00
1E
1E
00
00
1D
00
00
17
00
05
1C
07
00
1A
00
00
1D
18
1B
19
09
1D
00
00
00
17
00
06
04
1E
0A
1B
1B
03
00
00
07
1F
07
15
00
05
00
00
04
00
00
00
00
1A
00
17
02
00
03
00
00
19
00
00
08
07
18
00
19
17
00
00
04
0A
0B
04
09
00
00
1D
18
0C
16
00
00
00
00
0B
00
06
00
00
00
00
00
1B
1E
1A
00
03
00
1D
1F
1A
1F
07
00
01
04
06
06
00
03
07
16
00
00
00
1F
1F
00
05
00
01
00
00
00
00
00
03
03
1F
00
00
00
1B
03
09
00
1A
05
00
00
0A
06
08
0B
00
13
00
0A
00
0D
15
00
00
1B
03
08
07
00
00
19
00
08
00
03
0A
00
1C
00
00
08
00
00
00
00
18
1B
09
08
00
05
00
00
00
1B
00
05
16
00
00
03
09
00
00
00
07
05
07
19
1A
00
00
00
04
1E
06
00
00
15
00
04
19
1A
00
00
00
19
00
07
05
19
1C
00
16
05
1A
1E
1C
00
02
08
00
1E
09
01
00
00
01
00
00
00
00
00
00
00
00
00
00
00
00
00
00
00
00
00
00
00
00
00
0C
00
06
18
00
00
00
0A
00
00
06
00
15
00
05
1B
05
17
00
00
00
07
0A
0B
00
1A
16
00
00
00
00
00
00
00
01
00
00
00
00
1D
00
00
00
00
07
1F
00
00
01
00
00
00
09
00
00
15
1C
08
00
18
00
04
09
00
07
0B
19
17
1A
06
00
00
0A
00
1A
00
00
1A
00
08
15
16
00
15
08
1D
00
00
00
00
00
00
00
1E
1C
00
15
08
1E
00
00
00
04
00
04
1C
00
00
00
00
03
00
00
01
1E
00
00
00
00
02
00
00
04
01
00
00
00
00
00
00
00
00
00
00
00
00
00
00
00
00
00
00
15
00
00
00
00
00
05
03
06
00
00
16
00
00
19
06
13
05
05
00
00
00
06
04
00
07
1E
05
06
00
1B
1B
00
17
07
00
00
00
02
00
05
06
00
02
00
04
00
00
00
00
00
07
00
00
00
00
00
00
1E
00
00
1A
00
00
00
1F
1C
00
1E
00
00
00
00
00
00
00
1F
00
00
02
04
00
00
00
1E
00
00
00
00
00
07
00
00
00
18
00
15
00
00
18
00
16
00
07
00
00
0B
0C
17
17
00
00
08
06
1D
00
0B
09
05
04
00
06
00
04
08
18
00
1F
05
14
00
06
00
07
17
0A
08
00
00
19
00
00
1D
17
00
00
00
00
00
00
00
00
00
00
00
00
00
1E
00
00
00
00
00
15
00
00
00
00
1A
00
00
00
17
09
1A
00
00
00
0A
00
01
1F
00
00
03
00
03
00
00
00
00
00
00
00
00
00
00
00
00
06
1F
00
00
00
00
04
00
00
00
00
00
03
00
00
00
00
18
00
07
07
00
01
00
1C
19
00
1A
00
16
15
00
05
00
17
1C
00
04
1D
00
06
1E
18
06
1D
05
1C
1B
00
05
1A
00
00
07
06
00
0A
1C
06
09
0A
1C
00
07
00
00
19
18
16
05
09
07
03
1D
05
00
1B
00
1C
00
09
07
1A
1E
00
00
1E
00
08
08
07
00
08
00
1C
1C
05
08
19
00
06
17
04
07
00
00
1B
1A
06
1B
07
00
00
18
1A
00
00
00
00
00
14
0B
04
1B
0E
1A
00
04
00
06
00
00
00
1E
00
00
00
1D
1D
00
1D
00
00
1B
08
00
05
0C
05
00
00
00
18
00
00
18
1A
04
17
00
12
1E
04
1A
17
0B
03
04
00
02
00
1E
05
00
19
00
00
00
19
00
00
00
00
00
00
00
00
00
00
00
01
00
00
00
00
00
00
00
00
00
00
00
00
00
00
00
00
00
00
00
00
00
00
00
00
00
00
00
1B
07
02
00
03
03
00
1A
00
00
18
00
1D
00
1C
01
00
00
00
00
00
00
00
00
00
00
1F
00
00
00
00
00
00
04
03
00
00
00
00
00
00
00
00
00
00
00
00
00
00
00
1C

