00
18
00
00
00
00
20
1F
00
00
00
20
1F
20
1F
00
00
00
20
00
1F
20
00
1F
1F
00
00
00
00
20
00
00
00
00
00
1F
1F
3A
1F
00
00
1F
00
00
1F
00
00
00
20
00
00
00
26
00
00
00
20
1F
00
00
1F
2B
00
23
00
0F
00
00
2C
1F
00
1F
00
20
20
00
00
16
00
20
27
2D
00
22
1F
1F
00
30
00
16
00
0A
20
1C
00
1F
00
1C
00
31
00
17
1B
20
00
00
00
0B
00
20
00
00
00
00
20
1F
00
00
1F
1F
28
1F
00
00
23
00
25
00
28
00
00
00
00
00
00
00
00
1F
20
1F
00
20
00
20
20
1F
20
1F
1F
00
1F
00
20
1F
00
1F
20
1F
00
20
1F
00
20
1F
00
20
20
1F
00
1F
20
00
23
00
20
00
20
1E
1F
00
00
11
20
00
1D
00
15
00
00
20
20
17
12
2E
1F
00
00
29
1F
20
00
00
20
05
20
1F
20
1D
00
00
2C
00
1F
00
00
00
00
00
00
21
00
20
1B
00
2A
29
0C
00
00
00
00
0B
00
00
20
20
20
00
00
1A
20
20
00
00
00
14
32
00
00
28
0C
00
20
00
1F
20
00
22
00
00
1F
00
20
00
00
00
19
00
00
20
1F
00
1F
00
1F
1F
2F
00
37
00
00
00
00
00
00
00
00
1F
00
1F
1F
00
00
00
20
00
20
00
00
20
20
00
00
00
1F
00
00
20
22
00
00
00
28
00
1F
1F
00
1F
00
1F
00
20
1F
00
25
29
00
00
00
29
00
00
00
32
00
00
33
1F
2E
00
30
00
00
00
00
1F
00
00
1F
20
00
00
00
00
0D
18
17
32
00
00
1F
18
00
00
00
00
00
38
00
1F
00
00
2A
00
18
2E
1F
18
00
1A
1F
00
00
00
23
1F
1F
00
2F
00
00
20
00
2A
24
22
00
00
1F
20
00
1F
00
00
00
20
1F
00
00
00
18
1F
1F
22
18
00
20
00
24
1B
14
11
0C
00
1F
20
20
1F
1F
00
20
00

